#ifndef LITEVERSION_H
#define LITEVERSION_H


unsigned int liteVersion_len = 2480;
unsigned char liteVersion[] = {
 0x20, 0x00, 0x00, 0x00, 0x54, 0x46, 0x4c, 0x33, 0x00, 0x00, 0x00, 0x00,
  0x00, 0x00, 0x12, 0x00, 0x1c, 0x00, 0x04, 0x00, 0x08, 0x00, 0x0c, 0x00,
  0x10, 0x00, 0x14, 0x00, 0x00, 0x00, 0x18, 0x00, 0x12, 0x00, 0x00, 0x00,
  0x03, 0x00, 0x00, 0x00, 0x48, 0x09, 0x00, 0x00, 0x28, 0x04, 0x00, 0x00,
  0x10, 0x04, 0x00, 0x00, 0x3c, 0x00, 0x00, 0x00, 0x04, 0x00, 0x00, 0x00,
  0x01, 0x00, 0x00, 0x00, 0x0c, 0x00, 0x00, 0x00, 0x08, 0x00, 0x0c, 0x00,
  0x04, 0x00, 0x08, 0x00, 0x08, 0x00, 0x00, 0x00, 0x08, 0x00, 0x00, 0x00,
  0x0b, 0x00, 0x00, 0x00, 0x13, 0x00, 0x00, 0x00, 0x6d, 0x69, 0x6e, 0x5f,
  0x72, 0x75, 0x6e, 0x74, 0x69, 0x6d, 0x65, 0x5f, 0x76, 0x65, 0x72, 0x73,
  0x69, 0x6f, 0x6e, 0x00, 0x0c, 0x00, 0x00, 0x00, 0xc8, 0x03, 0x00, 0x00,
  0xb4, 0x03, 0x00, 0x00, 0x98, 0x03, 0x00, 0x00, 0xe4, 0x01, 0x00, 0x00,
  0xe0, 0x00, 0x00, 0x00, 0xac, 0x00, 0x00, 0x00, 0x78, 0x00, 0x00, 0x00,
  0x6c, 0x00, 0x00, 0x00, 0x58, 0x00, 0x00, 0x00, 0x44, 0x00, 0x00, 0x00,
  0x30, 0x00, 0x00, 0x00, 0x04, 0x00, 0x00, 0x00, 0x96, 0xfc, 0xff, 0xff,
  0x04, 0x00, 0x00, 0x00, 0x10, 0x00, 0x00, 0x00, 0x31, 0x2e, 0x31, 0x34,
  0x2e, 0x30, 0x00, 0x00, 0x00, 0x00, 0x00, 0x00, 0x00, 0x00, 0x00, 0x00,
  0x00, 0x00, 0x00, 0x00, 0x00, 0x00, 0x00, 0x00, 0x00, 0x00, 0x00, 0x00,
  0x80, 0xf7, 0xff, 0xff, 0x00, 0x00, 0x00, 0x00, 0x00, 0x00, 0x00, 0x00,
  0x00, 0x00, 0x00, 0x00, 0x90, 0xf7, 0xff, 0xff, 0x00, 0x00, 0x00, 0x00,
  0x00, 0x00, 0x00, 0x00, 0x00, 0x00, 0x00, 0x00, 0xa0, 0xf7, 0xff, 0xff,
  0x00, 0x00, 0x00, 0x00, 0x00, 0x00, 0x00, 0x00, 0x00, 0x00, 0x00, 0x00,
  0xb0, 0xf7, 0xff, 0xff, 0x00, 0x00, 0x00, 0x00, 0xf6, 0xfc, 0xff, 0xff,
  0x04, 0x00, 0x00, 0x00, 0x18, 0x00, 0x00, 0x00, 0x23, 0x70, 0xd6, 0x3f,
  0xb7, 0xa5, 0x5f, 0xc0, 0xbf, 0x45, 0x99, 0xbf, 0x4b, 0x1a, 0xaa, 0xbf,
  0x74, 0xd9, 0xc7, 0x3f, 0x81, 0x59, 0xc4, 0x3f, 0x00, 0x00, 0x00, 0x00,
  0x00, 0x00, 0x00, 0x00, 0x00, 0x00, 0x00, 0x00, 0x26, 0xfd, 0xff, 0xff,
  0x04, 0x00, 0x00, 0x00, 0x18, 0x00, 0x00, 0x00, 0x46, 0xef, 0xb0, 0xbe,
  0x4e, 0x92, 0x99, 0xbf, 0x7b, 0x40, 0x08, 0x3f, 0x02, 0xc7, 0x0d, 0x3f,
  0xe7, 0x6a, 0xaf, 0xbe, 0x4a, 0x20, 0xa6, 0xbe, 0x00, 0x00, 0x00, 0x00,
  0x00, 0x00, 0x00, 0x00, 0x00, 0x00, 0x00, 0x00, 0x56, 0xfd, 0xff, 0xff,
  0x04, 0x00, 0x00, 0x00, 0xf0, 0x00, 0x00, 0x00, 0xbc, 0xcb, 0xd0, 0xbd,
  0xbd, 0x0f, 0xa4, 0xbe, 0x50, 0x3c, 0xad, 0xbe, 0x99, 0xc0, 0x9d, 0xbe,
  0x2b, 0x95, 0xd7, 0x3e, 0x07, 0x98, 0xb5, 0x3e, 0x48, 0xca, 0xa4, 0xbe,
  0xae, 0xd2, 0x6b, 0xbe, 0x58, 0x0d, 0x6b, 0xbe, 0x7c, 0x44, 0x7f, 0x3e,
  0x34, 0x3e, 0xf5, 0x3e, 0xe4, 0xa5, 0x78, 0x3f, 0x4a, 0x15, 0x85, 0x3f,
  0xc0, 0x77, 0xb4, 0x3e, 0xc5, 0xef, 0x70, 0x3d, 0x9e, 0xb6, 0xd3, 0x3e,
  0x2f, 0xdd, 0x5e, 0x3e, 0xe1, 0xf6, 0x01, 0x3f, 0xbf, 0x90, 0x8d, 0x3f,
  0xb8, 0x3c, 0x74, 0xbf, 0x9e, 0xa0, 0x59, 0x3f, 0xab, 0xe5, 0x4d, 0x3d,
  0xce, 0x02, 0xe3, 0xbd, 0xe7, 0xee, 0xbe, 0x3e, 0x8c, 0x01, 0x89, 0xbe,
  0x34, 0x13, 0x07, 0xbf, 0xb6, 0xb6, 0xc1, 0x3d, 0xe4, 0xb9, 0xfb, 0x3e,
  0x2c, 0x4b, 0x2f, 0x3e, 0xf3, 0x9c, 0xe8, 0xbd, 0x98, 0xc1, 0x58, 0x3f,
  0x2c, 0x22, 0xa6, 0x3d, 0x2a, 0x5e, 0x9e, 0xbd, 0x85, 0xb2, 0xbd, 0x3e,
  0x30, 0x76, 0xa6, 0xbe, 0x41, 0x4c, 0x0a, 0xbf, 0x7d, 0xb7, 0x24, 0x3e,
  0xd6, 0x27, 0xe3, 0x3e, 0x9b, 0x93, 0x59, 0x3e, 0xfb, 0x35, 0x1b, 0xbe,
  0x3c, 0xc2, 0xa6, 0xbd, 0x28, 0x7f, 0x4b, 0xbe, 0x16, 0xf7, 0x73, 0xbe,
  0x51, 0x6f, 0xb2, 0xbe, 0x7e, 0xf6, 0xed, 0x3e, 0xcb, 0xdf, 0xc8, 0x3e,
  0xd7, 0xe8, 0xe1, 0xbe, 0x02, 0x74, 0x68, 0xbe, 0x34, 0x3c, 0x49, 0xbe,
  0x34, 0xa2, 0x55, 0x3e, 0x86, 0x3f, 0x89, 0xbd, 0x8d, 0x23, 0x63, 0xbe,
  0xa6, 0x79, 0x55, 0xbe, 0x0b, 0x9d, 0xa4, 0xbe, 0xda, 0x57, 0xfa, 0x3e,
  0x03, 0x87, 0xb2, 0x3e, 0xdb, 0x62, 0xe5, 0xbe, 0x92, 0xf7, 0x4e, 0xbe,
  0xca, 0x23, 0x43, 0xbe, 0x3b, 0x78, 0x4c, 0x3e, 0x00, 0x00, 0x00, 0x00,
  0x56, 0xfe, 0xff, 0xff, 0x04, 0x00, 0x00, 0x00, 0x90, 0x01, 0x00, 0x00,
  0xf8, 0xee, 0xc6, 0xbd, 0x10, 0xa1, 0x28, 0x3d, 0x25, 0x7d, 0x1b, 0x3e,
  0xb4, 0x58, 0x09, 0x3f, 0x58, 0x3e, 0xe7, 0xbd, 0x91, 0x15, 0x4e, 0xbe,
  0xf8, 0x46, 0x21, 0xbe, 0x7d, 0x6e, 0x77, 0x3c, 0x2a, 0x7a, 0x82, 0xbe,
  0x5a, 0x2e, 0xf1, 0x3d, 0xb9, 0x37, 0xe5, 0xbc, 0x60, 0xcd, 0xa2, 0x3c,
  0x5f, 0xd7, 0x9c, 0xbc, 0x75, 0xd2, 0xf1, 0x3e, 0xba, 0xe1, 0x92, 0x3b,
  0xf5, 0x4b, 0x6b, 0x3c, 0xfb, 0x20, 0x4b, 0x3c, 0x1e, 0x56, 0xb9, 0xba,
  0x80, 0x6d, 0x70, 0x3e, 0x04, 0xa9, 0x42, 0xbd, 0x50, 0x02, 0x35, 0xbd,
  0xa3, 0x63, 0x38, 0x3d, 0xf3, 0x9b, 0x82, 0xbd, 0x20, 0x8b, 0xce, 0x3e,
  0x88, 0x21, 0x69, 0x3d, 0xab, 0x26, 0x5b, 0x3d, 0xee, 0x26, 0x2d, 0x3d,
  0x98, 0xa3, 0x13, 0x3d, 0xe3, 0x4b, 0xb6, 0x3e, 0x4f, 0xaf, 0xbf, 0xbd,
  0xe3, 0xc0, 0xdd, 0xba, 0x82, 0xb9, 0xe8, 0x3c, 0x80, 0x3b, 0x15, 0xbe,
  0x0a, 0x14, 0xf9, 0x3e, 0xe0, 0xe6, 0x02, 0xbd, 0x81, 0x97, 0x25, 0x3d,
  0x18, 0x5a, 0xf4, 0xbc, 0xf6, 0xe0, 0xbf, 0xbc, 0xf8, 0x6f, 0x36, 0xbe,
  0x09, 0x01, 0x89, 0xbc, 0x8e, 0xab, 0x92, 0x3c, 0xfa, 0x29, 0xdc, 0xbc,
  0xb5, 0x03, 0x61, 0x3e, 0x03, 0x3b, 0xce, 0xbe, 0x16, 0xdf, 0x08, 0xbd,
  0xa2, 0xd6, 0x67, 0xbe, 0x2f, 0x4f, 0x53, 0xbc, 0xc0, 0x28, 0x32, 0x3d,
  0x28, 0x53, 0x96, 0x3e, 0x36, 0xe2, 0x05, 0x3d, 0x17, 0xbf, 0x8f, 0x3d,
  0x87, 0xc9, 0x52, 0xbd, 0x2b, 0x33, 0x34, 0x3e, 0xeb, 0x6f, 0x9b, 0xbe,
  0x18, 0xff, 0x64, 0x3d, 0x8e, 0xd2, 0x25, 0xbe, 0xa6, 0x49, 0x47, 0x3c,
  0x08, 0x34, 0x85, 0x3b, 0x31, 0x64, 0xd7, 0x3e, 0x3a, 0x22, 0x55, 0xbd,
  0xd0, 0xd9, 0x0a, 0x3d, 0x50, 0x22, 0x6e, 0x3c, 0x04, 0x0f, 0x6a, 0xbe,
  0x5f, 0xee, 0xbe, 0x3e, 0x90, 0x19, 0x79, 0xbc, 0x81, 0x44, 0x5b, 0x3e,
  0x01, 0xcf, 0x96, 0x3d, 0x5f, 0x79, 0x0a, 0x3c, 0xa3, 0x5e, 0x1d, 0xbe,
  0xa5, 0xff, 0x0d, 0x3d, 0x40, 0x5a, 0xc9, 0xbc, 0x0b, 0x9f, 0xd7, 0x3c,
  0x12, 0x76, 0xf0, 0xbc, 0x8d, 0xa8, 0xf4, 0x3e, 0x1e, 0x82, 0x2c, 0xbd,
  0xf7, 0xe3, 0xc2, 0xbc, 0x12, 0xa0, 0xca, 0xbd, 0x5e, 0x77, 0x09, 0xbd,
  0xf1, 0x9e, 0x02, 0xbe, 0x49, 0x2e, 0x54, 0x3d, 0x6e, 0x0b, 0xc5, 0xbc,
  0x1e, 0x99, 0x94, 0x3c, 0x29, 0x13, 0xa6, 0x3c, 0xa6, 0x1c, 0xdf, 0x3e,
  0x93, 0x29, 0x60, 0xbd, 0x85, 0x18, 0xc2, 0xbd, 0x4b, 0xc9, 0x61, 0x3c,
  0x41, 0x10, 0x30, 0x3d, 0x64, 0x58, 0x46, 0x3e, 0x5f, 0x2c, 0xb0, 0x3c,
  0x75, 0x26, 0x2a, 0xbc, 0x74, 0x69, 0x54, 0xbd, 0x5d, 0x43, 0x61, 0xbc,
  0x28, 0x3a, 0xce, 0xbe, 0xef, 0xb9, 0xca, 0xbc, 0x78, 0xaf, 0xb8, 0xbc,
  0x60, 0x96, 0x46, 0x3c, 0xdc, 0xdd, 0xa0, 0xbc, 0x08, 0xb8, 0x2a, 0xbe,
  0x0b, 0x06, 0xb3, 0xbb, 0x00, 0x00, 0x00, 0x00, 0x00, 0x00, 0x00, 0x00,
  0x00, 0x00, 0x00, 0x00, 0x00, 0x00, 0x06, 0x00, 0x08, 0x00, 0x04, 0x00,
  0x06, 0x00, 0x00, 0x00, 0x04, 0x00, 0x00, 0x00, 0x04, 0x00, 0x00, 0x00,
  0x03, 0xb1, 0x05, 0x3c, 0x00, 0x00, 0x00, 0x00, 0x00, 0x00, 0x00, 0x00,
  0xe0, 0xfa, 0xff, 0xff, 0x00, 0x00, 0x00, 0x00, 0x00, 0x00, 0x00, 0x00,
  0x00, 0x00, 0x00, 0x00, 0xf0, 0xfa, 0xff, 0xff, 0x0f, 0x00, 0x00, 0x00,
  0x4d, 0x4c, 0x49, 0x52, 0x20, 0x43, 0x6f, 0x6e, 0x76, 0x65, 0x72, 0x74,
  0x65, 0x64, 0x2e, 0x00, 0x01, 0x00, 0x00, 0x00, 0x14, 0x00, 0x00, 0x00,
  0x00, 0x00, 0x0e, 0x00, 0x18, 0x00, 0x04, 0x00, 0x08, 0x00, 0x0c, 0x00,
  0x10, 0x00, 0x14, 0x00, 0x0e, 0x00, 0x00, 0x00, 0x2c, 0x01, 0x00, 0x00,
  0x20, 0x01, 0x00, 0x00, 0x14, 0x01, 0x00, 0x00, 0x14, 0x00, 0x00, 0x00,
  0x04, 0x00, 0x00, 0x00, 0x04, 0x00, 0x00, 0x00, 0x6d, 0x61, 0x69, 0x6e,
  0x00, 0x00, 0x00, 0x00, 0x04, 0x00, 0x00, 0x00, 0xc8, 0x00, 0x00, 0x00,
  0x78, 0x00, 0x00, 0x00, 0x34, 0x00, 0x00, 0x00, 0x10, 0x00, 0x00, 0x00,
  0x00, 0x00, 0x0a, 0x00, 0x10, 0x00, 0x04, 0x00, 0x08, 0x00, 0x0c, 0x00,
  0x0a, 0x00, 0x00, 0x00, 0x01, 0x00, 0x00, 0x00, 0x10, 0x00, 0x00, 0x00,
  0x04, 0x00, 0x00, 0x00, 0x01, 0x00, 0x00, 0x00, 0x09, 0x00, 0x00, 0x00,
  0x01, 0x00, 0x00, 0x00, 0x08, 0x00, 0x00, 0x00, 0x82, 0xff, 0xff, 0xff,
  0x00, 0x00, 0x00, 0x08, 0x18, 0x00, 0x00, 0x00, 0x0c, 0x00, 0x00, 0x00,
  0x04, 0x00, 0x00, 0x00, 0x98, 0xfb, 0xff, 0xff, 0x01, 0x00, 0x00, 0x00,
  0x08, 0x00, 0x00, 0x00, 0x03, 0x00, 0x00, 0x00, 0x07, 0x00, 0x00, 0x00,
  0x04, 0x00, 0x00, 0x00, 0x01, 0x00, 0x00, 0x00, 0x00, 0x00, 0x0e, 0x00,
  0x16, 0x00, 0x00, 0x00, 0x08, 0x00, 0x0c, 0x00, 0x07, 0x00, 0x10, 0x00,
  0x0e, 0x00, 0x00, 0x00, 0x00, 0x00, 0x00, 0x08, 0x24, 0x00, 0x00, 0x00,
  0x18, 0x00, 0x00, 0x00, 0x0c, 0x00, 0x00, 0x00, 0x00, 0x00, 0x06, 0x00,
  0x08, 0x00, 0x07, 0x00, 0x06, 0x00, 0x00, 0x00, 0x00, 0x00, 0x00, 0x01,
  0x01, 0x00, 0x00, 0x00, 0x07, 0x00, 0x00, 0x00, 0x03, 0x00, 0x00, 0x00,
  0x06, 0x00, 0x00, 0x00, 0x03, 0x00, 0x00, 0x00, 0x05, 0x00, 0x00, 0x00,
  0x00, 0x00, 0x0e, 0x00, 0x14, 0x00, 0x00, 0x00, 0x08, 0x00, 0x0c, 0x00,
  0x07, 0x00, 0x10, 0x00, 0x0e, 0x00, 0x00, 0x00, 0x00, 0x00, 0x00, 0x08,
  0x18, 0x00, 0x00, 0x00, 0x0c, 0x00, 0x00, 0x00, 0x04, 0x00, 0x00, 0x00,
  0x24, 0xfc, 0xff, 0xff, 0x01, 0x00, 0x00, 0x00, 0x06, 0x00, 0x00, 0x00,
  0x03, 0x00, 0x00, 0x00, 0x00, 0x00, 0x00, 0x00, 0x02, 0x00, 0x00, 0x00,
  0xff, 0xff, 0xff, 0xff, 0x01, 0x00, 0x00, 0x00, 0x09, 0x00, 0x00, 0x00,
  0x01, 0x00, 0x00, 0x00, 0x00, 0x00, 0x00, 0x00, 0x0a, 0x00, 0x00, 0x00,
  0x88, 0x03, 0x00, 0x00, 0x18, 0x03, 0x00, 0x00, 0xc4, 0x02, 0x00, 0x00,
  0x7c, 0x02, 0x00, 0x00, 0x34, 0x02, 0x00, 0x00, 0xbc, 0x01, 0x00, 0x00,
  0x64, 0x01, 0x00, 0x00, 0xc0, 0x00, 0x00, 0x00, 0x4c, 0x00, 0x00, 0x00,
  0x04, 0x00, 0x00, 0x00, 0xb4, 0xfc, 0xff, 0xff, 0x34, 0x00, 0x00, 0x00,
  0x0a, 0x00, 0x00, 0x00, 0x1c, 0x00, 0x00, 0x00, 0x14, 0x00, 0x00, 0x00,
  0x04, 0x00, 0x00, 0x00, 0x02, 0x00, 0x00, 0x00, 0xff, 0xff, 0xff, 0xff,
  0x01, 0x00, 0x00, 0x00, 0xa0, 0xfc, 0xff, 0xff, 0x08, 0x00, 0x00, 0x00,
  0x49, 0x64, 0x65, 0x6e, 0x74, 0x69, 0x74, 0x79, 0x00, 0x00, 0x00, 0x00,
  0x02, 0x00, 0x00, 0x00, 0x01, 0x00, 0x00, 0x00, 0x01, 0x00, 0x00, 0x00,
  0xf8, 0xfc, 0xff, 0xff, 0x60, 0x00, 0x00, 0x00, 0x09, 0x00, 0x00, 0x00,
  0x1c, 0x00, 0x00, 0x00, 0x14, 0x00, 0x00, 0x00, 0x04, 0x00, 0x00, 0x00,
  0x02, 0x00, 0x00, 0x00, 0xff, 0xff, 0xff, 0xff, 0x01, 0x00, 0x00, 0x00,
  0xe4, 0xfc, 0xff, 0xff, 0x34, 0x00, 0x00, 0x00, 0x73, 0x65, 0x71, 0x75,
  0x65, 0x6e, 0x74, 0x69, 0x61, 0x6c, 0x2f, 0x64, 0x65, 0x6e, 0x73, 0x65,
  0x5f, 0x32, 0x2f, 0x4d, 0x61, 0x74, 0x4d, 0x75, 0x6c, 0x3b, 0x73, 0x65,
  0x71, 0x75, 0x65, 0x6e, 0x74, 0x69, 0x61, 0x6c, 0x2f, 0x64, 0x65, 0x6e,
  0x73, 0x65, 0x5f, 0x32, 0x2f, 0x42, 0x69, 0x61, 0x73, 0x41, 0x64, 0x64,
  0x00, 0x00, 0x00, 0x00, 0x02, 0x00, 0x00, 0x00, 0x01, 0x00, 0x00, 0x00,
  0x01, 0x00, 0x00, 0x00, 0x68, 0xfd, 0xff, 0xff, 0x90, 0x00, 0x00, 0x00,
  0x08, 0x00, 0x00, 0x00, 0x1c, 0x00, 0x00, 0x00, 0x14, 0x00, 0x00, 0x00,
  0x04, 0x00, 0x00, 0x00, 0x02, 0x00, 0x00, 0x00, 0xff, 0xff, 0xff, 0xff,
  0x06, 0x00, 0x00, 0x00, 0x54, 0xfd, 0xff, 0xff, 0x65, 0x00, 0x00, 0x00,
  0x73, 0x65, 0x71, 0x75, 0x65, 0x6e, 0x74, 0x69, 0x61, 0x6c, 0x2f, 0x64,
  0x65, 0x6e, 0x73, 0x65, 0x2f, 0x42, 0x69, 0x61, 0x73, 0x41, 0x64, 0x64,
  0x3b, 0x73, 0x65, 0x71, 0x75, 0x65, 0x6e, 0x74, 0x69, 0x61, 0x6c, 0x2f,
  0x64, 0x65, 0x6e, 0x73, 0x65, 0x5f, 0x31, 0x2f, 0x4d, 0x61, 0x74, 0x4d,
  0x75, 0x6c, 0x3b, 0x73, 0x65, 0x71, 0x75, 0x65, 0x6e, 0x74, 0x69, 0x61,
  0x6c, 0x2f, 0x64, 0x65, 0x6e, 0x73, 0x65, 0x5f, 0x31, 0x2f, 0x52, 0x65,
  0x6c, 0x75, 0x3b, 0x73, 0x65, 0x71, 0x75, 0x65, 0x6e, 0x74, 0x69, 0x61,
  0x6c, 0x2f, 0x64, 0x65, 0x6e, 0x73, 0x65, 0x5f, 0x31, 0x2f, 0x42, 0x69,
  0x61, 0x73, 0x41, 0x64, 0x64, 0x00, 0x00, 0x00, 0x02, 0x00, 0x00, 0x00,
  0x01, 0x00, 0x00, 0x00, 0x06, 0x00, 0x00, 0x00, 0x08, 0xfe, 0xff, 0xff,
  0x44, 0x00, 0x00, 0x00, 0x07, 0x00, 0x00, 0x00, 0x1c, 0x00, 0x00, 0x00,
  0x14, 0x00, 0x00, 0x00, 0x04, 0x00, 0x00, 0x00, 0x02, 0x00, 0x00, 0x00,
  0xff, 0xff, 0xff, 0xff, 0x0a, 0x00, 0x00, 0x00, 0xf4, 0xfd, 0xff, 0xff,
  0x18, 0x00, 0x00, 0x00, 0x73, 0x65, 0x71, 0x75, 0x65, 0x6e, 0x74, 0x69,
  0x61, 0x6c, 0x2f, 0x64, 0x65, 0x6e, 0x73, 0x65, 0x2f, 0x4d, 0x61, 0x74,
  0x4d, 0x75, 0x6c, 0x31, 0x00, 0x00, 0x00, 0x00, 0x02, 0x00, 0x00, 0x00,
  0x01, 0x00, 0x00, 0x00, 0x0a, 0x00, 0x00, 0x00, 0xc2, 0xfe, 0xff, 0xff,
  0x68, 0x00, 0x00, 0x00, 0x06, 0x00, 0x00, 0x00, 0x0c, 0x00, 0x00, 0x00,
  0x04, 0x00, 0x00, 0x00, 0x38, 0xfe, 0xff, 0xff, 0x4c, 0x00, 0x00, 0x00,
  0x73, 0x65, 0x71, 0x75, 0x65, 0x6e, 0x74, 0x69, 0x61, 0x6c, 0x2f, 0x64,
  0x65, 0x6e, 0x73, 0x65, 0x5f, 0x31, 0x2f, 0x4d, 0x61, 0x74, 0x4d, 0x75,
  0x6c, 0x3b, 0x73, 0x65, 0x71, 0x75, 0x65, 0x6e, 0x74, 0x69, 0x61, 0x6c,
  0x2f, 0x64, 0x65, 0x6e, 0x73, 0x65, 0x5f, 0x31, 0x2f, 0x52, 0x65, 0x6c,
  0x75, 0x3b, 0x73, 0x65, 0x71, 0x75, 0x65, 0x6e, 0x74, 0x69, 0x61, 0x6c,
  0x2f, 0x64, 0x65, 0x6e, 0x73, 0x65, 0x5f, 0x31, 0x2f, 0x42, 0x69, 0x61,
  0x73, 0x41, 0x64, 0x64, 0x00, 0x00, 0x00, 0x00, 0x01, 0x00, 0x00, 0x00,
  0x06, 0x00, 0x00, 0x00, 0x36, 0xff, 0xff, 0xff, 0x34, 0x00, 0x00, 0x00,
  0x05, 0x00, 0x00, 0x00, 0x0c, 0x00, 0x00, 0x00, 0x04, 0x00, 0x00, 0x00,
  0xac, 0xfe, 0xff, 0xff, 0x19, 0x00, 0x00, 0x00, 0x73, 0x65, 0x71, 0x75,
  0x65, 0x6e, 0x74, 0x69, 0x61, 0x6c, 0x2f, 0x64, 0x65, 0x6e, 0x73, 0x65,
  0x5f, 0x32, 0x2f, 0x4d, 0x61, 0x74, 0x4d, 0x75, 0x6c, 0x00, 0x00, 0x00,
  0x02, 0x00, 0x00, 0x00, 0x01, 0x00, 0x00, 0x00, 0x06, 0x00, 0x00, 0x00,
  0x7a, 0xff, 0xff, 0xff, 0x34, 0x00, 0x00, 0x00, 0x04, 0x00, 0x00, 0x00,
  0x0c, 0x00, 0x00, 0x00, 0x04, 0x00, 0x00, 0x00, 0xf0, 0xfe, 0xff, 0xff,
  0x19, 0x00, 0x00, 0x00, 0x73, 0x65, 0x71, 0x75, 0x65, 0x6e, 0x74, 0x69,
  0x61, 0x6c, 0x2f, 0x64, 0x65, 0x6e, 0x73, 0x65, 0x5f, 0x31, 0x2f, 0x4d,
  0x61, 0x74, 0x4d, 0x75, 0x6c, 0x00, 0x00, 0x00, 0x02, 0x00, 0x00, 0x00,
  0x06, 0x00, 0x00, 0x00, 0x0a, 0x00, 0x00, 0x00, 0xbe, 0xff, 0xff, 0xff,
  0x30, 0x00, 0x00, 0x00, 0x03, 0x00, 0x00, 0x00, 0x0c, 0x00, 0x00, 0x00,
  0x04, 0x00, 0x00, 0x00, 0x34, 0xff, 0xff, 0xff, 0x17, 0x00, 0x00, 0x00,
  0x73, 0x65, 0x71, 0x75, 0x65, 0x6e, 0x74, 0x69, 0x61, 0x6c, 0x2f, 0x64,
  0x65, 0x6e, 0x73, 0x65, 0x2f, 0x4d, 0x61, 0x74, 0x4d, 0x75, 0x6c, 0x00,
  0x02, 0x00, 0x00, 0x00, 0x0a, 0x00, 0x00, 0x00, 0x0a, 0x00, 0x00, 0x00,
  0x00, 0x00, 0x0e, 0x00, 0x14, 0x00, 0x04, 0x00, 0x00, 0x00, 0x08, 0x00,
  0x0c, 0x00, 0x10, 0x00, 0x0e, 0x00, 0x00, 0x00, 0x4c, 0x00, 0x00, 0x00,
  0x02, 0x00, 0x00, 0x00, 0x0c, 0x00, 0x00, 0x00, 0x04, 0x00, 0x00, 0x00,
  0x84, 0xff, 0xff, 0xff, 0x32, 0x00, 0x00, 0x00, 0x73, 0x65, 0x71, 0x75,
  0x65, 0x6e, 0x74, 0x69, 0x61, 0x6c, 0x2f, 0x64, 0x65, 0x6e, 0x73, 0x65,
  0x5f, 0x32, 0x2f, 0x42, 0x69, 0x61, 0x73, 0x41, 0x64, 0x64, 0x2f, 0x52,
  0x65, 0x61, 0x64, 0x56, 0x61, 0x72, 0x69, 0x61, 0x62, 0x6c, 0x65, 0x4f,
  0x70, 0x2f, 0x72, 0x65, 0x73, 0x6f, 0x75, 0x72, 0x63, 0x65, 0x00, 0x00,
  0x01, 0x00, 0x00, 0x00, 0x01, 0x00, 0x00, 0x00, 0x14, 0x00, 0x18, 0x00,
  0x04, 0x00, 0x00, 0x00, 0x08, 0x00, 0x0c, 0x00, 0x10, 0x00, 0x00, 0x00,
  0x00, 0x00, 0x14, 0x00, 0x14, 0x00, 0x00, 0x00, 0x38, 0x00, 0x00, 0x00,
  0x01, 0x00, 0x00, 0x00, 0x20, 0x00, 0x00, 0x00, 0x18, 0x00, 0x00, 0x00,
  0x04, 0x00, 0x00, 0x00, 0x02, 0x00, 0x00, 0x00, 0xff, 0xff, 0xff, 0xff,
  0x0a, 0x00, 0x00, 0x00, 0x04, 0x00, 0x04, 0x00, 0x04, 0x00, 0x00, 0x00,
  0x0b, 0x00, 0x00, 0x00, 0x64, 0x65, 0x6e, 0x73, 0x65, 0x5f, 0x69, 0x6e,
  0x70, 0x75, 0x74, 0x00, 0x02, 0x00, 0x00, 0x00, 0x01, 0x00, 0x00, 0x00,
  0x0a, 0x00, 0x00, 0x00, 0x02, 0x00, 0x00, 0x00, 0x2c, 0x00, 0x00, 0x00,
  0x10, 0x00, 0x00, 0x00, 0x0c, 0x00, 0x0c, 0x00, 0x07, 0x00, 0x00, 0x00,
  0x00, 0x00, 0x08, 0x00, 0x0c, 0x00, 0x00, 0x00, 0x00, 0x00, 0x00, 0x0e,
  0x0e, 0x00, 0x00, 0x00, 0x0c, 0x00, 0x10, 0x00, 0x07, 0x00, 0x00, 0x00,
  0x08, 0x00, 0x0c, 0x00, 0x0c, 0x00, 0x00, 0x00, 0x00, 0x00, 0x00, 0x09,
  0x09, 0x00, 0x00, 0x00, 0x09, 0x00, 0x00, 0x00
};

#endif //LITEVERSION_H