#ifndef SINE_MODEL_H
#define SINE_MODEL_H


unsigned int sine_model_len = 3008;
unsigned char sine_model[] = {
 0x20, 0x00, 0x00, 0x00, 0x54, 0x46, 0x4c, 0x33, 0x00, 0x00, 0x00, 0x00,
  0x00, 0x00, 0x12, 0x00, 0x1c, 0x00, 0x04, 0x00, 0x08, 0x00, 0x0c, 0x00,
  0x10, 0x00, 0x14, 0x00, 0x00, 0x00, 0x18, 0x00, 0x12, 0x00, 0x00, 0x00,
  0x03, 0x00, 0x00, 0x00, 0x74, 0x0b, 0x00, 0x00, 0x70, 0x06, 0x00, 0x00,
  0x58, 0x06, 0x00, 0x00, 0x3c, 0x00, 0x00, 0x00, 0x04, 0x00, 0x00, 0x00,
  0x01, 0x00, 0x00, 0x00, 0x0c, 0x00, 0x00, 0x00, 0x08, 0x00, 0x0c, 0x00,
  0x04, 0x00, 0x08, 0x00, 0x08, 0x00, 0x00, 0x00, 0x08, 0x00, 0x00, 0x00,
  0x0b, 0x00, 0x00, 0x00, 0x13, 0x00, 0x00, 0x00, 0x6d, 0x69, 0x6e, 0x5f,
  0x72, 0x75, 0x6e, 0x74, 0x69, 0x6d, 0x65, 0x5f, 0x76, 0x65, 0x72, 0x73,
  0x69, 0x6f, 0x6e, 0x00, 0x0c, 0x00, 0x00, 0x00, 0x08, 0x06, 0x00, 0x00,
  0xf4, 0x05, 0x00, 0x00, 0x98, 0x05, 0x00, 0x00, 0x74, 0x05, 0x00, 0x00,
  0x20, 0x05, 0x00, 0x00, 0x0c, 0x01, 0x00, 0x00, 0xb8, 0x00, 0x00, 0x00,
  0x64, 0x00, 0x00, 0x00, 0x58, 0x00, 0x00, 0x00, 0x44, 0x00, 0x00, 0x00,
  0x30, 0x00, 0x00, 0x00, 0x04, 0x00, 0x00, 0x00, 0x96, 0xfa, 0xff, 0xff,
  0x04, 0x00, 0x00, 0x00, 0x10, 0x00, 0x00, 0x00, 0x31, 0x2e, 0x35, 0x2e,
  0x30, 0x00, 0x00, 0x00, 0x00, 0x00, 0x00, 0x00, 0x00, 0x00, 0x00, 0x00,
  0x00, 0x00, 0x00, 0x00, 0x00, 0x00, 0x00, 0x00, 0x00, 0x00, 0x00, 0x00,
  0x58, 0xf5, 0xff, 0xff, 0x00, 0x00, 0x00, 0x00, 0x00, 0x00, 0x00, 0x00,
  0x00, 0x00, 0x00, 0x00, 0x68, 0xf5, 0xff, 0xff, 0x00, 0x00, 0x00, 0x00,
  0x00, 0x00, 0x00, 0x00, 0x00, 0x00, 0x00, 0x00, 0x78, 0xf5, 0xff, 0xff,
  0x00, 0x00, 0x00, 0x00, 0xe6, 0xfa, 0xff, 0xff, 0x04, 0x00, 0x00, 0x00,
  0x40, 0x00, 0x00, 0x00, 0xc6, 0x8d, 0x5a, 0xbe, 0x81, 0xad, 0x31, 0x3d,
  0xe7, 0x9e, 0x0b, 0xbf, 0x5f, 0x3a, 0x43, 0x3e, 0x70, 0x53, 0x50, 0xbe,
  0x3b, 0xf1, 0xa8, 0x3c, 0x3d, 0x96, 0x09, 0xbf, 0x3a, 0x6e, 0xfd, 0x3e,
  0x86, 0xa9, 0xeb, 0xbe, 0xac, 0x64, 0x0e, 0xbf, 0x44, 0x32, 0x56, 0xbe,
  0xd3, 0xb2, 0xf2, 0x3e, 0xc7, 0x4b, 0xc8, 0x3e, 0x62, 0x13, 0xe3, 0x3e,
  0x47, 0x0a, 0x18, 0xbf, 0xc8, 0x61, 0xbe, 0xbe, 0x00, 0x00, 0x00, 0x00,
  0x36, 0xfb, 0xff, 0xff, 0x04, 0x00, 0x00, 0x00, 0x40, 0x00, 0x00, 0x00,
  0xd7, 0x65, 0xaf, 0xbe, 0xd2, 0x15, 0x97, 0x3e, 0x5a, 0x47, 0xf8, 0xbe,
  0x8f, 0xf7, 0x3b, 0xbe, 0x5b, 0x59, 0x97, 0xbf, 0x24, 0x0e, 0xc1, 0x3d,
  0xe6, 0xd4, 0x00, 0xbe, 0x18, 0x68, 0x49, 0xbe, 0xbe, 0x8f, 0xef, 0xbe,
  0x53, 0x8f, 0x3c, 0x3e, 0x65, 0xf0, 0xd9, 0x3f, 0x6c, 0x05, 0x72, 0x3f,
  0x59, 0x2b, 0x1a, 0xbe, 0xb3, 0x01, 0x0c, 0x3f, 0x89, 0x7d, 0xaf, 0x3e,
  0xc4, 0x67, 0x19, 0xbe, 0x00, 0x00, 0x00, 0x00, 0x86, 0xfb, 0xff, 0xff,
  0x04, 0x00, 0x00, 0x00, 0x00, 0x04, 0x00, 0x00, 0x99, 0xe0, 0x84, 0x3e,
  0x57, 0x63, 0x26, 0xbe, 0x50, 0xff, 0xfe, 0xbd, 0x3c, 0x85, 0x8b, 0xbe,
  0x78, 0x3d, 0x63, 0xbe, 0xba, 0xa8, 0x0a, 0x3e, 0x88, 0x31, 0xc3, 0xbe,
  0x30, 0xa4, 0x82, 0x3e, 0xd4, 0x6a, 0x98, 0xbe, 0xb3, 0x51, 0xc2, 0x3e,
  0x05, 0x69, 0xda, 0x3e, 0x75, 0xf1, 0x87, 0x3e, 0x8d, 0x05, 0x00, 0x3f,
  0xc6, 0xe1, 0x2e, 0x3d, 0xca, 0x5d, 0x6c, 0x3e, 0x26, 0x68, 0xce, 0xbe,
  0x0a, 0x96, 0x29, 0x3e, 0x77, 0x1a, 0xa8, 0x3e, 0xe0, 0x1f, 0xd9, 0xbc,
  0xf1, 0x63, 0xb2, 0xbe, 0x38, 0x25, 0x8d, 0xbe, 0xc4, 0xf2, 0x82, 0xbd,
  0xd1, 0xee, 0x95, 0x3e, 0x05, 0x67, 0xb1, 0xbe, 0x26, 0x6b, 0x42, 0x3e,
  0x94, 0xce, 0x22, 0xbe, 0x46, 0x29, 0x51, 0x3e, 0x77, 0xb6, 0x8a, 0xbe,
  0x52, 0x3f, 0x35, 0x3e, 0xb9, 0x6d, 0xa2, 0x3e, 0x81, 0x5e, 0x6e, 0xbe,
  0xbf, 0x54, 0xc2, 0xbe, 0x78, 0x0e, 0x2b, 0x3d, 0xb2, 0x33, 0x90, 0x3e,
  0xb6, 0xaf, 0x1d, 0x3e, 0xb8, 0xc4, 0xe5, 0xbd, 0xd3, 0xcd, 0xce, 0xbe,
  0xa5, 0x47, 0x83, 0xbe, 0x74, 0xab, 0xb8, 0x3d, 0x92, 0xa5, 0x47, 0xbe,
  0x50, 0xca, 0x8b, 0x3c, 0x52, 0x7a, 0x13, 0x3e, 0x16, 0x83, 0xa4, 0xbe,
  0x7b, 0x08, 0x77, 0xbd, 0x66, 0x9b, 0xe4, 0x3e, 0x3b, 0x70, 0xbb, 0xbe,
  0xc0, 0x13, 0x9c, 0xbb, 0xde, 0x94, 0xb4, 0xbe, 0x40, 0x36, 0xf1, 0xbb,
  0x0d, 0x32, 0xda, 0x3d, 0xee, 0xe8, 0x0d, 0x3e, 0x7d, 0x14, 0xaa, 0xbe,
  0xb0, 0x6f, 0xa5, 0x3c, 0xaa, 0xa0, 0x06, 0x3f, 0x28, 0x8e, 0xc6, 0xbe,
  0xd2, 0xeb, 0x8c, 0x3e, 0x10, 0x8f, 0x18, 0xbe, 0xd4, 0x64, 0xea, 0x3d,
  0x1c, 0xf6, 0x8a, 0xbd, 0x76, 0xf7, 0x63, 0xbc, 0x9f, 0x49, 0xcc, 0x3e,
  0xa9, 0x04, 0x80, 0x3e, 0xba, 0xb0, 0x36, 0xbe, 0x0c, 0xf2, 0xad, 0xbd,
  0x71, 0x51, 0xa2, 0x3e, 0xc3, 0xef, 0xcb, 0x3e, 0x2f, 0xc2, 0xa4, 0xbe,
  0x3e, 0x9c, 0x98, 0xbe, 0xb2, 0x6c, 0x05, 0x3e, 0xf0, 0x9e, 0x61, 0x3f,
  0x6b, 0x57, 0x9f, 0x3e, 0x7f, 0xe5, 0xea, 0x3d, 0x4e, 0x68, 0x22, 0x3e,
  0xfe, 0x71, 0x1c, 0x3e, 0x9f, 0xfa, 0x52, 0xbe, 0xa1, 0x4f, 0x67, 0xbe,
  0xc7, 0xcb, 0x5e, 0xbf, 0x11, 0x2d, 0xe8, 0xbe, 0x88, 0x1c, 0x4d, 0xbd,
  0x5e, 0xbc, 0x35, 0x3e, 0xe0, 0xb5, 0x56, 0xbd, 0x83, 0x27, 0xb9, 0xbd,
  0x30, 0xe9, 0x79, 0xbd, 0x46, 0x9f, 0x02, 0xbe, 0xdf, 0x92, 0xdc, 0x3e,
  0xc5, 0x6a, 0xff, 0x3d, 0xef, 0x2b, 0xbd, 0x3e, 0x85, 0x9d, 0x2a, 0x3e,
  0xff, 0x54, 0xa9, 0xbe, 0x24, 0x63, 0xf1, 0xbd, 0x54, 0xa6, 0xd9, 0x3d,
  0x14, 0x35, 0x99, 0x3e, 0xd5, 0xc1, 0x82, 0xbe, 0x12, 0xd7, 0xd3, 0x3e,
  0xa6, 0xb3, 0x87, 0xbe, 0x84, 0x84, 0x88, 0xbd, 0x36, 0x20, 0xc1, 0xbe,
  0xba, 0xc0, 0xb7, 0xbe, 0x40, 0xdf, 0x4b, 0xbd, 0x65, 0xbf, 0xb3, 0x3e,
  0x82, 0xe8, 0x74, 0x3e, 0x52, 0xba, 0x85, 0xbe, 0xaa, 0x56, 0x67, 0x3e,
  0x06, 0x2d, 0x8f, 0xbe, 0xd5, 0x86, 0xa1, 0xbe, 0x8d, 0x1d, 0x91, 0x3e,
  0xd6, 0x5b, 0xbf, 0xbe, 0x00, 0xb9, 0x20, 0xbe, 0x38, 0x3b, 0x16, 0xbd,
  0xbe, 0x21, 0x26, 0x3e, 0x94, 0x50, 0xac, 0xbd, 0x32, 0xbc, 0x10, 0x3e,
  0x98, 0x95, 0xb8, 0xbe, 0x08, 0x41, 0x65, 0x3d, 0x8d, 0x09, 0xd4, 0xbe,
  0xee, 0xe0, 0x11, 0x3e, 0xda, 0xb2, 0x42, 0x3e, 0xa5, 0xbf, 0xd6, 0xbe,
  0x78, 0x54, 0xbb, 0xbe, 0xaf, 0xa2, 0xb4, 0xbe, 0x25, 0x60, 0xa1, 0xbe,
  0x50, 0x3d, 0x0d, 0x3d, 0x8e, 0xd2, 0x40, 0xbe, 0x50, 0x6a, 0xd9, 0xbd,
  0xa7, 0x8d, 0x9c, 0xbe, 0x40, 0xbd, 0xc4, 0xbe, 0x42, 0xd8, 0x67, 0x3e,
  0x76, 0x97, 0x2b, 0x3e, 0x2b, 0x27, 0x8e, 0x3e, 0xbf, 0x7e, 0x8b, 0xbe,
  0x90, 0xe0, 0x4d, 0x3d, 0xf0, 0xdd, 0x29, 0xbd, 0xed, 0x7d, 0x91, 0x3e,
  0xd9, 0x8a, 0x45, 0xbe, 0x7a, 0x3c, 0x62, 0x3e, 0x98, 0x04, 0xa7, 0xbd,
  0xe2, 0x58, 0x70, 0x3e, 0x20, 0x6e, 0x00, 0xbd, 0xe4, 0x28, 0xbf, 0x3d,
  0xa3, 0x43, 0xb4, 0xbe, 0xe6, 0x10, 0x21, 0x3e, 0x99, 0xa3, 0x91, 0xbe,
  0x97, 0xcb, 0x98, 0x3e, 0x92, 0x43, 0x13, 0xbe, 0x02, 0x79, 0x46, 0xbe,
  0xb3, 0x6a, 0xf8, 0xbd, 0x60, 0xa0, 0x81, 0xbe, 0xd1, 0x30, 0x80, 0xbe,
  0x88, 0x61, 0x78, 0xbd, 0x29, 0xee, 0xb3, 0xbe, 0x26, 0xbe, 0xc3, 0xbe,
  0x3f, 0x46, 0xc5, 0x3d, 0xec, 0x2a, 0xd2, 0xbe, 0xe0, 0xe5, 0x81, 0xbc,
  0xa0, 0x1f, 0xa5, 0xbd, 0x28, 0xb0, 0x83, 0x3e, 0x6b, 0xd3, 0xe8, 0x3c,
  0xf5, 0x9e, 0xc8, 0x3e, 0x3b, 0x75, 0x85, 0x3e, 0x5b, 0x82, 0xd5, 0x3e,
  0x90, 0x25, 0x13, 0xbe, 0xe3, 0xf4, 0x01, 0x3e, 0x00, 0xe7, 0x81, 0x3a,
  0x4a, 0xe8, 0xdd, 0x3d, 0xbb, 0x7a, 0xdc, 0x3e, 0x56, 0x72, 0x33, 0x3f,
  0x91, 0xf9, 0xbb, 0xbe, 0x68, 0x2a, 0x62, 0xbf, 0x1a, 0xc1, 0x05, 0x3e,
  0x20, 0xd0, 0xe7, 0xbd, 0x22, 0x4c, 0x67, 0x3e, 0x61, 0xcc, 0xd7, 0x3e,
  0x95, 0x7c, 0x8a, 0x3d, 0x9a, 0xd1, 0x83, 0xbf, 0x9c, 0x15, 0xf0, 0xbd,
  0xaf, 0x9d, 0xb0, 0xbe, 0xe4, 0x93, 0xd7, 0x3d, 0xef, 0xa1, 0xa4, 0xbc,
  0xf4, 0x8e, 0xf0, 0xbd, 0xde, 0x5e, 0x6d, 0x3e, 0x74, 0x65, 0xc2, 0x3d,
  0x97, 0x68, 0xd9, 0xbe, 0xe7, 0xcf, 0x84, 0x3e, 0xfa, 0xa4, 0xf6, 0x3e,
  0xeb, 0xfb, 0xab, 0xbe, 0x72, 0xea, 0x6f, 0x3e, 0x18, 0x3b, 0xb8, 0xbd,
  0xa5, 0x72, 0x35, 0xbe, 0x9c, 0x43, 0x67, 0xbd, 0xfe, 0x00, 0x95, 0x3e,
  0x2a, 0x04, 0x75, 0x3e, 0xc5, 0x44, 0xbd, 0x3e, 0x88, 0x5b, 0xb6, 0xbe,
  0x91, 0x0b, 0x5e, 0x3d, 0xb5, 0x8d, 0x87, 0x3e, 0x85, 0xe6, 0xeb, 0xbd,
  0xe9, 0x76, 0x95, 0x3e, 0xa4, 0xe3, 0x37, 0x3e, 0x3e, 0xf6, 0x62, 0x3e,
  0x0b, 0xeb, 0xac, 0x3e, 0xa4, 0xdd, 0x8a, 0x3d, 0x62, 0x3c, 0x7e, 0x3e,
  0xa0, 0x1c, 0xd5, 0xbd, 0x35, 0x2c, 0xd5, 0x3e, 0xd0, 0x69, 0x99, 0x3e,
  0x5c, 0xb4, 0x5d, 0xbd, 0x58, 0xb1, 0xee, 0xbd, 0x0d, 0xaa, 0x84, 0xbe,
  0x30, 0x3b, 0xec, 0xbc, 0xcd, 0xe0, 0xad, 0xbd, 0x1c, 0x08, 0xa9, 0xbe,
  0x10, 0xd3, 0xfd, 0xbd, 0x55, 0xbb, 0x9c, 0x3e, 0xe1, 0xc8, 0x4d, 0xbd,
  0x60, 0x2d, 0xdd, 0x3c, 0x85, 0x99, 0xe4, 0x3e, 0x5c, 0x52, 0xa3, 0x3d,
  0x20, 0x2a, 0x6c, 0x3c, 0x9a, 0x1f, 0x9a, 0xbe, 0x76, 0x0f, 0x0b, 0x3e,
  0x91, 0x02, 0xf5, 0xbd, 0x23, 0x8e, 0xf6, 0x3e, 0xc9, 0xf2, 0xd2, 0xbe,
  0x81, 0x96, 0xce, 0x3e, 0x56, 0xbc, 0x06, 0x3e, 0xd1, 0x43, 0x4f, 0x3c,
  0xe8, 0x33, 0x07, 0xbd, 0x3f, 0xd6, 0xa9, 0x3d, 0x82, 0x16, 0xa9, 0xbe,
  0xac, 0xab, 0x24, 0xbe, 0x56, 0x31, 0x06, 0xbe, 0x83, 0xd8, 0x03, 0x3f,
  0x66, 0x64, 0x26, 0x3e, 0x2c, 0xe5, 0xed, 0xbd, 0x18, 0x38, 0x03, 0xbe,
  0x10, 0xf2, 0x8a, 0x3e, 0x8e, 0x95, 0x84, 0xbe, 0x24, 0x75, 0x7a, 0x3e,
  0x28, 0x0e, 0xbb, 0xbe, 0x12, 0x4b, 0x72, 0x3e, 0x58, 0x89, 0x51, 0xbe,
  0x38, 0x4d, 0x7f, 0x3e, 0x8a, 0xc3, 0x56, 0x3e, 0xaa, 0x94, 0xa7, 0x3d,
  0xdf, 0x0f, 0xd7, 0x3e, 0x1c, 0xd0, 0x68, 0x3e, 0xfa, 0x13, 0x5d, 0xbe,
  0x3f, 0xf2, 0x5d, 0x3e, 0x1a, 0xe4, 0x65, 0x3e, 0xac, 0x4d, 0x99, 0x3d,
  0x6c, 0x9e, 0xf2, 0xbd, 0x2b, 0x6a, 0xfb, 0xbc, 0x03, 0x08, 0xff, 0x3e,
  0x32, 0x97, 0x29, 0xbe, 0x72, 0x7e, 0x0b, 0x3e, 0xcc, 0x48, 0x13, 0xbe,
  0x00, 0x00, 0x00, 0x00, 0x96, 0xff, 0xff, 0xff, 0x04, 0x00, 0x00, 0x00,
  0x40, 0x00, 0x00, 0x00, 0x1a, 0x20, 0x95, 0x3d, 0x00, 0x00, 0x00, 0x00,
  0x0b, 0x14, 0xa8, 0xbc, 0x49, 0x0c, 0x94, 0x3d, 0xe9, 0x83, 0x15, 0x3f,
  0xd5, 0x88, 0xb2, 0xbe, 0x00, 0x00, 0x00, 0x00, 0x00, 0x00, 0x00, 0x00,
  0x00, 0x00, 0x00, 0x00, 0x95, 0xc7, 0x6c, 0xbe, 0xed, 0x79, 0x03, 0x3f,
  0x23, 0xa8, 0xea, 0xbe, 0x49, 0x16, 0x78, 0xbd, 0x2f, 0xab, 0xa1, 0xbe,
  0xa3, 0x97, 0xa7, 0xbe, 0xc2, 0x28, 0x93, 0x3c, 0x00, 0x00, 0x00, 0x00,
  0xe6, 0xff, 0xff, 0xff, 0x04, 0x00, 0x00, 0x00, 0x04, 0x00, 0x00, 0x00,
  0xa6, 0x68, 0xa2, 0xbe, 0x00, 0x00, 0x00, 0x00, 0x00, 0x00, 0x00, 0x00,
  0x00, 0x00, 0x06, 0x00, 0x08, 0x00, 0x04, 0x00, 0x06, 0x00, 0x00, 0x00,
  0x04, 0x00, 0x00, 0x00, 0x40, 0x00, 0x00, 0x00, 0x00, 0x00, 0x00, 0x00,
  0x15, 0x96, 0x5e, 0x3e, 0x00, 0x00, 0x00, 0x00, 0x15, 0x00, 0x98, 0xbc,
  0x00, 0x00, 0x00, 0x00, 0x4a, 0x3f, 0x52, 0x3f, 0x00, 0x00, 0x00, 0x00,
  0x02, 0x8e, 0x1e, 0xbf, 0x00, 0x00, 0x00, 0x00, 0x00, 0x00, 0x00, 0x00,
  0x00, 0x00, 0x00, 0x00, 0x3c, 0xab, 0x5b, 0x3e, 0x46, 0x0a, 0x42, 0x3e,
  0x74, 0xc8, 0x5a, 0xbf, 0x00, 0x00, 0x00, 0x00, 0x00, 0x00, 0x00, 0x00,
  0x00, 0x00, 0x00, 0x00, 0x00, 0x00, 0x00, 0x00, 0x00, 0x00, 0x00, 0x00,
  0xf8, 0xfa, 0xff, 0xff, 0x00, 0x00, 0x00, 0x00, 0x00, 0x00, 0x00, 0x00,
  0x00, 0x00, 0x00, 0x00, 0x08, 0xfb, 0xff, 0xff, 0x00, 0x00, 0x00, 0x00,
  0x00, 0x00, 0x00, 0x00, 0x0f, 0x00, 0x00, 0x00, 0x4d, 0x4c, 0x49, 0x52,
  0x20, 0x43, 0x6f, 0x6e, 0x76, 0x65, 0x72, 0x74, 0x65, 0x64, 0x2e, 0x00,
  0x01, 0x00, 0x00, 0x00, 0x14, 0x00, 0x00, 0x00, 0x00, 0x00, 0x0e, 0x00,
  0x18, 0x00, 0x04, 0x00, 0x08, 0x00, 0x0c, 0x00, 0x10, 0x00, 0x14, 0x00,
  0x0e, 0x00, 0x00, 0x00, 0x00, 0x01, 0x00, 0x00, 0xf4, 0x00, 0x00, 0x00,
  0xe8, 0x00, 0x00, 0x00, 0x14, 0x00, 0x00, 0x00, 0x04, 0x00, 0x00, 0x00,
  0x04, 0x00, 0x00, 0x00, 0x6d, 0x61, 0x69, 0x6e, 0x00, 0x00, 0x00, 0x00,
  0x03, 0x00, 0x00, 0x00, 0x90, 0x00, 0x00, 0x00, 0x48, 0x00, 0x00, 0x00,
  0x04, 0x00, 0x00, 0x00, 0xce, 0xff, 0xff, 0xff, 0x00, 0x00, 0x00, 0x08,
  0x18, 0x00, 0x00, 0x00, 0x0c, 0x00, 0x00, 0x00, 0x04, 0x00, 0x00, 0x00,
  0x88, 0xfb, 0xff, 0xff, 0x01, 0x00, 0x00, 0x00, 0x09, 0x00, 0x00, 0x00,
  0x03, 0x00, 0x00, 0x00, 0x08, 0x00, 0x00, 0x00, 0x05, 0x00, 0x00, 0x00,
  0x02, 0x00, 0x00, 0x00, 0x00, 0x00, 0x0e, 0x00, 0x14, 0x00, 0x00, 0x00,
  0x08, 0x00, 0x0c, 0x00, 0x07, 0x00, 0x10, 0x00, 0x0e, 0x00, 0x00, 0x00,
  0x00, 0x00, 0x00, 0x08, 0x1c, 0x00, 0x00, 0x00, 0x10, 0x00, 0x00, 0x00,
  0x04, 0x00, 0x00, 0x00, 0xba, 0xff, 0xff, 0xff, 0x00, 0x00, 0x00, 0x01,
  0x01, 0x00, 0x00, 0x00, 0x08, 0x00, 0x00, 0x00, 0x03, 0x00, 0x00, 0x00,
  0x07, 0x00, 0x00, 0x00, 0x04, 0x00, 0x00, 0x00, 0x03, 0x00, 0x00, 0x00,
  0x00, 0x00, 0x0e, 0x00, 0x16, 0x00, 0x00, 0x00, 0x08, 0x00, 0x0c, 0x00,
  0x07, 0x00, 0x10, 0x00, 0x0e, 0x00, 0x00, 0x00, 0x00, 0x00, 0x00, 0x08,
  0x24, 0x00, 0x00, 0x00, 0x18, 0x00, 0x00, 0x00, 0x0c, 0x00, 0x00, 0x00,
  0x00, 0x00, 0x06, 0x00, 0x08, 0x00, 0x07, 0x00, 0x06, 0x00, 0x00, 0x00,
  0x00, 0x00, 0x00, 0x01, 0x01, 0x00, 0x00, 0x00, 0x07, 0x00, 0x00, 0x00,
  0x03, 0x00, 0x00, 0x00, 0x00, 0x00, 0x00, 0x00, 0x06, 0x00, 0x00, 0x00,
  0x01, 0x00, 0x00, 0x00, 0x01, 0x00, 0x00, 0x00, 0x09, 0x00, 0x00, 0x00,
  0x01, 0x00, 0x00, 0x00, 0x00, 0x00, 0x00, 0x00, 0x0a, 0x00, 0x00, 0x00,
  0x94, 0x03, 0x00, 0x00, 0x20, 0x03, 0x00, 0x00, 0xb0, 0x02, 0x00, 0x00,
  0x50, 0x02, 0x00, 0x00, 0x04, 0x02, 0x00, 0x00, 0xb8, 0x01, 0x00, 0x00,
  0x70, 0x01, 0x00, 0x00, 0xe0, 0x00, 0x00, 0x00, 0x4c, 0x00, 0x00, 0x00,
  0x04, 0x00, 0x00, 0x00, 0xa8, 0xfc, 0xff, 0xff, 0x34, 0x00, 0x00, 0x00,
  0x0a, 0x00, 0x00, 0x00, 0x1c, 0x00, 0x00, 0x00, 0x14, 0x00, 0x00, 0x00,
  0x04, 0x00, 0x00, 0x00, 0x02, 0x00, 0x00, 0x00, 0xff, 0xff, 0xff, 0xff,
  0x01, 0x00, 0x00, 0x00, 0x94, 0xfc, 0xff, 0xff, 0x08, 0x00, 0x00, 0x00,
  0x49, 0x64, 0x65, 0x6e, 0x74, 0x69, 0x74, 0x79, 0x00, 0x00, 0x00, 0x00,
  0x02, 0x00, 0x00, 0x00, 0x01, 0x00, 0x00, 0x00, 0x01, 0x00, 0x00, 0x00,
  0xec, 0xfc, 0xff, 0xff, 0x80, 0x00, 0x00, 0x00, 0x09, 0x00, 0x00, 0x00,
  0x1c, 0x00, 0x00, 0x00, 0x14, 0x00, 0x00, 0x00, 0x04, 0x00, 0x00, 0x00,
  0x02, 0x00, 0x00, 0x00, 0xff, 0xff, 0xff, 0xff, 0x10, 0x00, 0x00, 0x00,
  0xd8, 0xfc, 0xff, 0xff, 0x55, 0x00, 0x00, 0x00, 0x73, 0x65, 0x71, 0x75,
  0x65, 0x6e, 0x74, 0x69, 0x61, 0x6c, 0x5f, 0x33, 0x2f, 0x64, 0x65, 0x6e,
  0x73, 0x65, 0x5f, 0x31, 0x30, 0x2f, 0x4d, 0x61, 0x74, 0x4d, 0x75, 0x6c,
  0x3b, 0x73, 0x65, 0x71, 0x75, 0x65, 0x6e, 0x74, 0x69, 0x61, 0x6c, 0x5f,
  0x33, 0x2f, 0x64, 0x65, 0x6e, 0x73, 0x65, 0x5f, 0x31, 0x30, 0x2f, 0x52,
  0x65, 0x6c, 0x75, 0x3b, 0x73, 0x65, 0x71, 0x75, 0x65, 0x6e, 0x74, 0x69,
  0x61, 0x6c, 0x5f, 0x33, 0x2f, 0x64, 0x65, 0x6e, 0x73, 0x65, 0x5f, 0x31,
  0x30, 0x2f, 0x42, 0x69, 0x61, 0x73, 0x41, 0x64, 0x64, 0x00, 0x00, 0x00,
  0x02, 0x00, 0x00, 0x00, 0x01, 0x00, 0x00, 0x00, 0x10, 0x00, 0x00, 0x00,
  0x7c, 0xfd, 0xff, 0xff, 0x7c, 0x00, 0x00, 0x00, 0x08, 0x00, 0x00, 0x00,
  0x1c, 0x00, 0x00, 0x00, 0x14, 0x00, 0x00, 0x00, 0x04, 0x00, 0x00, 0x00,
  0x02, 0x00, 0x00, 0x00, 0xff, 0xff, 0xff, 0xff, 0x10, 0x00, 0x00, 0x00,
  0x68, 0xfd, 0xff, 0xff, 0x52, 0x00, 0x00, 0x00, 0x73, 0x65, 0x71, 0x75,
  0x65, 0x6e, 0x74, 0x69, 0x61, 0x6c, 0x5f, 0x33, 0x2f, 0x64, 0x65, 0x6e,
  0x73, 0x65, 0x5f, 0x39, 0x2f, 0x4d, 0x61, 0x74, 0x4d, 0x75, 0x6c, 0x3b,
  0x73, 0x65, 0x71, 0x75, 0x65, 0x6e, 0x74, 0x69, 0x61, 0x6c, 0x5f, 0x33,
  0x2f, 0x64, 0x65, 0x6e, 0x73, 0x65, 0x5f, 0x39, 0x2f, 0x52, 0x65, 0x6c,
  0x75, 0x3b, 0x73, 0x65, 0x71, 0x75, 0x65, 0x6e, 0x74, 0x69, 0x61, 0x6c,
  0x5f, 0x33, 0x2f, 0x64, 0x65, 0x6e, 0x73, 0x65, 0x5f, 0x39, 0x2f, 0x42,
  0x69, 0x61, 0x73, 0x41, 0x64, 0x64, 0x00, 0x00, 0x02, 0x00, 0x00, 0x00,
  0x01, 0x00, 0x00, 0x00, 0x10, 0x00, 0x00, 0x00, 0x72, 0xfe, 0xff, 0xff,
  0x34, 0x00, 0x00, 0x00, 0x07, 0x00, 0x00, 0x00, 0x0c, 0x00, 0x00, 0x00,
  0x04, 0x00, 0x00, 0x00, 0xe4, 0xfd, 0xff, 0xff, 0x1b, 0x00, 0x00, 0x00,
  0x73, 0x65, 0x71, 0x75, 0x65, 0x6e, 0x74, 0x69, 0x61, 0x6c, 0x5f, 0x33,
  0x2f, 0x64, 0x65, 0x6e, 0x73, 0x65, 0x5f, 0x39, 0x2f, 0x4d, 0x61, 0x74,
  0x4d, 0x75, 0x6c, 0x00, 0x02, 0x00, 0x00, 0x00, 0x10, 0x00, 0x00, 0x00,
  0x01, 0x00, 0x00, 0x00, 0xb6, 0xfe, 0xff, 0xff, 0x38, 0x00, 0x00, 0x00,
  0x06, 0x00, 0x00, 0x00, 0x0c, 0x00, 0x00, 0x00, 0x04, 0x00, 0x00, 0x00,
  0x28, 0xfe, 0xff, 0xff, 0x1c, 0x00, 0x00, 0x00, 0x73, 0x65, 0x71, 0x75,
  0x65, 0x6e, 0x74, 0x69, 0x61, 0x6c, 0x5f, 0x33, 0x2f, 0x64, 0x65, 0x6e,
  0x73, 0x65, 0x5f, 0x31, 0x31, 0x2f, 0x4d, 0x61, 0x74, 0x4d, 0x75, 0x6c,
  0x00, 0x00, 0x00, 0x00, 0x02, 0x00, 0x00, 0x00, 0x01, 0x00, 0x00, 0x00,
  0x10, 0x00, 0x00, 0x00, 0xfe, 0xfe, 0xff, 0xff, 0x38, 0x00, 0x00, 0x00,
  0x05, 0x00, 0x00, 0x00, 0x0c, 0x00, 0x00, 0x00, 0x04, 0x00, 0x00, 0x00,
  0x70, 0xfe, 0xff, 0xff, 0x1c, 0x00, 0x00, 0x00, 0x73, 0x65, 0x71, 0x75,
  0x65, 0x6e, 0x74, 0x69, 0x61, 0x6c, 0x5f, 0x33, 0x2f, 0x64, 0x65, 0x6e,
  0x73, 0x65, 0x5f, 0x31, 0x30, 0x2f, 0x4d, 0x61, 0x74, 0x4d, 0x75, 0x6c,
  0x00, 0x00, 0x00, 0x00, 0x02, 0x00, 0x00, 0x00, 0x10, 0x00, 0x00, 0x00,
  0x10, 0x00, 0x00, 0x00, 0x46, 0xff, 0xff, 0xff, 0x50, 0x00, 0x00, 0x00,
  0x04, 0x00, 0x00, 0x00, 0x0c, 0x00, 0x00, 0x00, 0x04, 0x00, 0x00, 0x00,
  0xb8, 0xfe, 0xff, 0xff, 0x35, 0x00, 0x00, 0x00, 0x73, 0x65, 0x71, 0x75,
  0x65, 0x6e, 0x74, 0x69, 0x61, 0x6c, 0x5f, 0x33, 0x2f, 0x64, 0x65, 0x6e,
  0x73, 0x65, 0x5f, 0x31, 0x30, 0x2f, 0x42, 0x69, 0x61, 0x73, 0x41, 0x64,
  0x64, 0x2f, 0x52, 0x65, 0x61, 0x64, 0x56, 0x61, 0x72, 0x69, 0x61, 0x62,
  0x6c, 0x65, 0x4f, 0x70, 0x2f, 0x72, 0x65, 0x73, 0x6f, 0x75, 0x72, 0x63,
  0x65, 0x00, 0x00, 0x00, 0x01, 0x00, 0x00, 0x00, 0x10, 0x00, 0x00, 0x00,
  0xa2, 0xff, 0xff, 0xff, 0x50, 0x00, 0x00, 0x00, 0x03, 0x00, 0x00, 0x00,
  0x0c, 0x00, 0x00, 0x00, 0x04, 0x00, 0x00, 0x00, 0x14, 0xff, 0xff, 0xff,
  0x35, 0x00, 0x00, 0x00, 0x73, 0x65, 0x71, 0x75, 0x65, 0x6e, 0x74, 0x69,
  0x61, 0x6c, 0x5f, 0x33, 0x2f, 0x64, 0x65, 0x6e, 0x73, 0x65, 0x5f, 0x31,
  0x31, 0x2f, 0x42, 0x69, 0x61, 0x73, 0x41, 0x64, 0x64, 0x2f, 0x52, 0x65,
  0x61, 0x64, 0x56, 0x61, 0x72, 0x69, 0x61, 0x62, 0x6c, 0x65, 0x4f, 0x70,
  0x2f, 0x72, 0x65, 0x73, 0x6f, 0x75, 0x72, 0x63, 0x65, 0x00, 0x00, 0x00,
  0x01, 0x00, 0x00, 0x00, 0x01, 0x00, 0x00, 0x00, 0x00, 0x00, 0x0e, 0x00,
  0x14, 0x00, 0x04, 0x00, 0x00, 0x00, 0x08, 0x00, 0x0c, 0x00, 0x10, 0x00,
  0x0e, 0x00, 0x00, 0x00, 0x50, 0x00, 0x00, 0x00, 0x02, 0x00, 0x00, 0x00,
  0x0c, 0x00, 0x00, 0x00, 0x04, 0x00, 0x00, 0x00, 0x80, 0xff, 0xff, 0xff,
  0x34, 0x00, 0x00, 0x00, 0x73, 0x65, 0x71, 0x75, 0x65, 0x6e, 0x74, 0x69,
  0x61, 0x6c, 0x5f, 0x33, 0x2f, 0x64, 0x65, 0x6e, 0x73, 0x65, 0x5f, 0x39,
  0x2f, 0x42, 0x69, 0x61, 0x73, 0x41, 0x64, 0x64, 0x2f, 0x52, 0x65, 0x61,
  0x64, 0x56, 0x61, 0x72, 0x69, 0x61, 0x62, 0x6c, 0x65, 0x4f, 0x70, 0x2f,
  0x72, 0x65, 0x73, 0x6f, 0x75, 0x72, 0x63, 0x65, 0x00, 0x00, 0x00, 0x00,
  0x01, 0x00, 0x00, 0x00, 0x10, 0x00, 0x00, 0x00, 0x14, 0x00, 0x18, 0x00,
  0x04, 0x00, 0x00, 0x00, 0x08, 0x00, 0x0c, 0x00, 0x10, 0x00, 0x00, 0x00,
  0x00, 0x00, 0x14, 0x00, 0x14, 0x00, 0x00, 0x00, 0x3c, 0x00, 0x00, 0x00,
  0x01, 0x00, 0x00, 0x00, 0x20, 0x00, 0x00, 0x00, 0x18, 0x00, 0x00, 0x00,
  0x04, 0x00, 0x00, 0x00, 0x02, 0x00, 0x00, 0x00, 0xff, 0xff, 0xff, 0xff,
  0x01, 0x00, 0x00, 0x00, 0x04, 0x00, 0x04, 0x00, 0x04, 0x00, 0x00, 0x00,
  0x0d, 0x00, 0x00, 0x00, 0x64, 0x65, 0x6e, 0x73, 0x65, 0x5f, 0x39, 0x5f,
  0x69, 0x6e, 0x70, 0x75, 0x74, 0x00, 0x00, 0x00, 0x02, 0x00, 0x00, 0x00,
  0x01, 0x00, 0x00, 0x00, 0x01, 0x00, 0x00, 0x00, 0x01, 0x00, 0x00, 0x00,
  0x10, 0x00, 0x00, 0x00, 0x0c, 0x00, 0x10, 0x00, 0x07, 0x00, 0x00, 0x00,
  0x08, 0x00, 0x0c, 0x00, 0x0c, 0x00, 0x00, 0x00, 0x00, 0x00, 0x00, 0x09,
  0x09, 0x00, 0x00, 0x00, 0x09, 0x00, 0x00, 0x00
};

#endif //SINE_MODEL_H